<pad>	0
<s>	0
</s>	0
<unk>	0
<mask>	0
▁t	-0
he	-1
▁i	-2
in	-3
▁d	-4
le	-5
ch	-6
en	-7
▁s	-8
▁is	-9
ie	-10
ar	-11
as	-12
▁m	-13
▁w	-14
▁the	-15
▁b	-16
ing	-17
▁le	-18
at	-19
au	-20
ne	-21
ro	-22
▁e	-23
▁g	-24
▁l	-25
▁p	-26
▁he	-27
▁to	-28
an	-29
em	-30
ir	-31
is	-32
te	-33
auf	-34
ble	-35
▁ne	-36
▁so	-37
▁we	-38
▁das	-39
▁hel	-40
▁ist	-41
▁sch	-42
ag	-43
ay	-44
ce	-45
fa	-46
it	-47
lo	-48
on	-49
or	-50
ou	-51
rn	-52
▁c	-53
▁f	-54
▁h	-55
▁k	-56
▁y	-57
are	-58
ark	-59
arn	-60
hen	-61
his	-62
ies	-63
ine	-64
▁be	-65
▁bu	-66
▁es	-67
▁ge	-68
▁on	-69
blem	-70
rnen	-71
▁are	-72
▁auf	-73
▁dem	-74
▁ein	-75
▁fas	-76
▁ich	-77
▁lie	-78
▁pro	-79
▁you	-80
chine	-81
▁park	-82
▁schö	-83
▁sofa	-84
▁this	-85
arning	-86
▁lernen	-87
▁problem	-88
▁learning	-89
ac	-90
al	-91
be	-92
ed	-93
ep	-94
es	-95
ft	-96
fu	-97
gt	-98
gu	-99
ht	-100
lä	-101
me	-102
ni	-103
ns	-104
ok	-105
ov	-106
ow	-107
pr	-108
sm	-109
ss	-110
ti	-111
ue	-112
ze	-113
zu	-114
▁a	-115
ben	-116
cer	-117
cin	-118
day	-119
end	-120
fen	-121
ful	-122
gen	-123
her	-124
ier	-125
ith	-126
les	-127
mor	-128
ner	-129
nst	-130
ook	-131
ove	-132
row	-133
tel	-134
ter	-135
uss	-136
ute	-137
zin	-138
▁du	-139
▁go	-140
▁in	-141
▁ma	-142
▁me	-143
▁ni	-144
▁ta	-145
▁zu	-146
ages	-147
allo	-148
angu	-149
atze	-150
auti	-151
isch	-152
kauf	-153
leep	-154
lles	-155
läft	-156
prac	-157
smit	-158
tter	-159
▁bei	-160
▁buy	-161
▁can	-162
▁cat	-163
▁day	-164
▁den	-165
▁die	-166
▁dir	-167
▁gro	-168
▁how	-169
▁kan	-170
▁mas	-171
▁mir	-172
▁mor	-173
▁new	-174
▁tag	-175
▁wie	-176
▁wir	-177
ather	-178
ating	-179
iesem	-180
▁book	-181
▁buch	-182
▁geht	-183
▁help	-184
▁love	-185
▁muss	-186
▁need	-187
▁neue	-188
▁nice	-189
▁some	-190
▁with	-191
ceries	-192
ierend	-193
kaufen	-194
morrow	-195
▁gehen	-196
▁going	-197
▁hallo	-198
▁hello	-199
▁heute	-200
▁katze	-201
▁langu	-202
▁leben	-203
▁liebe	-204
▁liegt	-205
▁schön	-206
▁sleep	-207
▁sprac	-208
▁table	-209
▁tisch	-210
▁today	-211
autiful	-212
smittel	-213
▁diesem	-214
▁fascin	-215
▁faszin	-216
▁helfen	-217
▁kannst	-218
▁morgen	-219
▁wetter	-220
▁machine	-221
▁schläft	-222
▁schöner	-223
▁weather	-224
chinelles	-225
▁sleeping	-226
▁sprachen	-227
▁tomorrow	-228
▁beautiful	-229
▁einkaufen	-230
▁groceries	-231
▁languages	-232
▁fascinating	-233
▁faszinierend	-234
▁lebensmittel	-235
▁maschinelles	-236
ab	-237
bl	-238
bo	-239
bu	-240
ca	-241
ci	-242
da	-243
de	-244
di	-245
du	-246
ea	-247
eb	-248
ee	-249
eg	-250
eh	-251
ei	-252
el	-253
er	-254
et	-255
eu	-256
ew	-257
fe	-258
ge	-259
go	-260
gr	-261
ha	-262
hi	-263
hl	-264
ho	-265
hö	-266
ic	-267
if	-268
ka	-269
la	-270
lf	-271
li	-272
ll	-273
lp	-274
ma	-275
mi	-276
mo	-277
mu	-278
na	-279
nd	-280
ng	-281
nk	-282
nn	-283
ob	-284
oc	-285
od	-286
of	-287
oi	-288
om	-289
oo	-290
pa	-291
pi	-292
ra	-293
re	-294
rg	-295
ri	-296
rk	-297
rr	-298
sc	-299
se	-300
sl	-301
so	-302
sp	-303
st	-304
sz	-305
ta	-306
th	-307
to	-308
tt	-309
tz	-310
ua	-311
uc	-312
uf	-313
ul	-314
us	-315
ut	-316
uy	-317
ve	-318
we	-319
wi	-320
yo	-321
zi	-322
äf	-323
ön	-324
▁n	-325
▁o	-326
▁z	-327
ach	-328
age	-329
ang	-330
ann	-331
asc	-332
asz	-333
atz	-334
aut	-335
can	-336
cat	-337
che	-338
chl	-339
chö	-340
eat	-341
eau	-342
ehe	-343
ein	-344
ens	-345
fas	-346
gro	-347
hel	-348
heu	-349
hin	-350
ice	-351
ieb	-352
ieg	-353
ifu	-354
ina	-355
ini	-356
ink	-357
kan	-358
kat	-359
kau	-360
lea	-361
leb	-362
lee	-363
lem	-364
ler	-365
lie	-366
lle	-367
llo	-368
mas	-369
mit	-370
nee	-371
nen	-372
neu	-373
new	-374
nin	-375
oin	-376
org	-377
par	-378
pin	-379
pro	-380
rac	-381
ren	-382
rie	-383
rob	-384
roc	-385
rro	-386
sch	-387
sem	-388
sle	-389
the	-390
tin	-391
tte	-392
uag	-393
uch	-394
wie	-395
you	-396
äft	-397
öne	-398
▁ar	-399
▁au	-400
▁bo	-401
▁da	-402
▁de	-403
▁di	-404
▁ha	-405
▁ho	-406
▁ic	-407
▁la	-408
▁lo	-409
▁mi	-410
▁mo	-411
▁mu	-412
▁sp	-413
▁th	-414
▁ti	-415
▁wi	-416
able	-417
anns	-418
asch	-419
athe	-420
chen	-421
chin	-422
ehen	-423
ensm	-424
guag	-425
inat	-426
inel	-427
inie	-428
itte	-429
lear	-430
nice	-431
ning	-432
oing	-433
orro	-434
ping	-435
rend	-436
ries	-437
roce	-438
tifu	-439
ting	-440
▁geh	-441
▁hal	-442
▁heu	-443
▁kat	-444
▁lan	-445
▁leb	-446
▁ler	-447
▁lov	-448
▁nee	-449
▁neu	-450
▁par	-451
▁sle	-452
▁sof	-453
▁som	-454
▁spr	-455
▁tis	-456
▁tod	-457
▁tom	-458
▁wet	-459
▁wit	-460
achen	-461
annst	-462
aufen	-463
bensm	-464
cinat	-465
eping	-466
inier	-467
ittel	-468
morro	-469
orgen	-470
roble	-471
rocer	-472
tiful	-473
▁beau	-474
▁dies	-475
▁eink	-476
▁fasc	-477
▁fasz	-478
▁helf	-479
▁hell	-480
▁lear	-481
▁lern	-482
▁lieb	-483
▁lieg	-484
▁schl	-485
▁weat	-486
achine	-487
chinel	-488
guages	-489
roblem	-490
zinier	-491
▁learn	-492
▁schlä	-493
▁tomor	-494
aschine	-495
bensmit	-496
leeping	-497
prachen	-498
▁beauti	-499
▁grocer	-500
▁schöne	-501
anguages	-502
cinating	-503
▁einkauf	-504
zinierend	-505
▁maschine	-506
▁lebensmit	-507
▁	-508
e	-509
i	-510
n	-511
s	-512
a	-513
t	-514
h	-515
l	-516
o	-517
r	-518
.	-519
c	-520
u	-521
d	-522
g	-523
m	-524
b	-525
f	-526
w	-527
p	-528
k	-529
y	-530
?	-531
,	-532
z	-533
ö	-534
v	-535
ä	-536
