<pad>	0
<s>	0
</s>	0
<unk>	0
<mask>	0
▁म	-0
in	-1
है	-2
▁है	-3
he	-4
▁l	-5
▁आ	-6
ar	-7
is	-8
▁t	-9
▁क	-10
▁स	-11
ing	-12
an	-13
at	-14
ou	-15
ते	-16
मस	-17
या	-18
र्	-19
▁m	-20
▁n	-21
▁w	-22
▁y	-23
▁न	-24
arn	-25
hel	-26
मस्	-27
▁is	-28
▁le	-29
▁आप	-30
▁मे	-31
▁hel	-32
▁you	-33
▁हैं	-34
arning	-35
▁learning	-36
ac	-37
ag	-38
as	-39
ay	-40
bl	-41
ce	-42
em	-43
es	-44
ew	-45
gu	-46
ho	-47
it	-48
lo	-49
od	-50
ov	-51
pr	-52
ंग	-53
ंद	-54
अच	-55
इस	-56
एं	-57
खन	-58
छा	-59
झे	-60
दद	-61
नि	-62
पस	-63
भा	-64
री	-65
शी	-66
षक	-67
षा	-68
सम	-69
से	-70
▁c	-71
▁f	-72
▁i	-73
▁ल	-74
ach	-75
are	-76
asc	-77
eat	-78
her	-79
his	-80
how	-81
ice	-82
ine	-83
ith	-84
obl	-85
ove	-86
अच्	-87
कते	-88
कर्	-89
खना	-90
शीन	-91
ुझे	-92
ैसे	-93
ौसम	-94
्या	-95
▁me	-96
▁pr	-97
▁आज	-98
▁इस	-99
▁कर	-100
▁नई	-101
▁पस	-102
▁भा	-103
▁सी	-104
ages	-105
angu	-106
inat	-107
oday	-108
निंग	-109
षाएं	-110
▁are	-111
▁can	-112
▁how	-113
▁new	-114
▁the	-115
▁अच्	-116
▁मदद	-117
▁में	-118
▁लर्	-119
oblem	-120
कर्षक	-121
मस्ते	-122
मस्या	-123
▁fasc	-124
▁help	-125
▁love	-126
▁mach	-127
▁nice	-128
▁this	-129
▁weat	-130
▁with	-131
▁कैसे	-132
▁क्या	-133
▁पसंद	-134
▁मशीन	-135
▁मुझे	-136
▁मेरी	-137
▁मौसम	-138
▁सकते	-139
▁hello	-140
▁langu	-141
▁today	-142
▁अच्छा	-143
▁सीखना	-144
inating	-145
▁आकर्षक	-146
▁नमस्ते	-147
▁भाषाएं	-148
▁समस्या	-149
▁machine	-150
▁problem	-151
▁weather	-152
▁लर्निंग	-153
▁languages	-154
▁fascinating	-155
ca	-156
ch	-157
ci	-158
da	-159
ea	-160
el	-161
er	-162
fa	-163
ge	-164
hi	-165
ic	-166
la	-167
le	-168
ll	-169
lp	-170
ma	-171
me	-172
na	-173
ne	-174
ng	-175
ni	-176
ob	-177
ow	-178
re	-179
rn	-180
ro	-181
sc	-182
th	-183
ti	-184
to	-185
ua	-186
ve	-187
we	-188
wi	-189
yo	-190
आक	-191
आज	-192
आप	-193
कत	-194
कर	-195
कै	-196
क्	-197
च्	-198
नई	-199
नम	-200
ना	-201
मद	-202
मश	-203
मु	-204
मे	-205
मौ	-206
लर	-207
सं	-208
सक	-209
सी	-210
स्	-211
ाए	-212
ाष	-213
िं	-214
ीख	-215
ीन	-216
ुझ	-217
ें	-218
ेर	-219
ैं	-220
ैस	-221
ौस	-222
्छ	-223
्त	-224
्न	-225
्य	-226
्ष	-227
▁a	-228
▁h	-229
▁p	-230
▁अ	-231
▁इ	-232
▁प	-233
▁भ	-234
▁ह	-235
age	-236
ang	-237
ble	-238
can	-239
cin	-240
day	-241
ear	-242
fas	-243
hin	-244
ina	-245
nin	-246
pro	-247
the	-248
tin	-249
uag	-250
you	-251
नमस	-252
भाष	-253
र्न	-254
र्ष	-255
लर्	-256
संद	-257
हैं	-258
ाएं	-259
िंग	-260
ीखन	-261
्छा	-262
्ते	-263
▁ar	-264
▁he	-265
▁ho	-266
▁la	-267
▁lo	-268
▁ma	-269
▁ne	-270
▁ni	-271
▁th	-272
▁to	-273
▁we	-274
▁wi	-275
▁अच	-276
▁आक	-277
▁कै	-278
▁क्	-279
▁मद	-280
▁मश	-281
▁मु	-282
▁मौ	-283
▁सक	-284
▁सम	-285
athe	-286
blem	-287
earn	-288
guag	-289
hell	-290
help	-291
ning	-292
ting	-293
पसंद	-294
भाषा	-295
र्नि	-296
र्षक	-297
ीखना	-298
▁fas	-299
▁lan	-300
▁lov	-301
▁mac	-302
▁tod	-303
▁wit	-304
▁नमस	-305
▁मशी	-306
▁मेर	-307
▁समस	-308
achin	-309
ascin	-310
ating	-311
eathe	-312
probl	-313
अच्छा	-314
▁hell	-315
▁आकर्	-316
▁नमस्	-317
▁भाषा	-318
▁समस्	-319
achine	-320
eather	-321
guages	-322
र्निंग	-323
▁learn	-324
▁probl	-325
ascinat	-326
anguages	-327
▁fascinat	-328
▁	-329
e	-330
a	-331
i	-332
n	-333
म	-334
स	-335
h	-336
l	-337
o	-338
t	-339
ं	-340
क	-341
ा	-342
े	-343
ै	-344
्	-345
g	-346
r	-347
s	-348
न	-349
ह	-350
?	-351
c	-352
w	-353
आ	-354
र	-355
.	-356
m	-357
u	-358
y	-359
द	-360
प	-361
ी	-362
।	-363
,	-364
p	-365
त	-366
य	-367
ष	-368
b	-369
d	-370
f	-371
v	-372
अ	-373
इ	-374
ई	-375
ए	-376
ख	-377
ग	-378
च	-379
छ	-380
ज	-381
झ	-382
भ	-383
ल	-384
श	-385
ि	-386
ु	-387
ौ	-388
